<unk>	0
<s>	0
</s>	0
▁T	-0
▁S	-1
▁P	-2
▁K	-3
▁L	-4
es	-5
▁d	-6
▁F	-7
on	-8
UL	-9
en	-10
▁M	-11
▁A	-12
▁R	-13
▁l	-14
▁p	-15
▁E	-16
▁c	-17
▁de	-18
▁s	-19
▁N	-20
ti	-21
re	-22
EUL	-23
▁a	-24
.,	-25
ou	-26
."	-27
EL	-28
$(	-29
er	-30
is	-31
ent	-32
an	-33
▁LA	-34
le	-35
▁Y	-36
▁KM	-37
RL	-38
qu	-39
▁KMF	-40
RLEUL	-41
▁KMFRLEUL	-42
▁KO	-43
▁O	-44
AL	-45
IL	-46
in	-47
#(	-48
▁m	-49
te	-50
▁U	-51
ar	-52
et	-53
▁la	-54
▁LE	-55
▁*	-56
▁"	-57
▁TR	-58
OU	-59
it	-60
ur	-61
ne	-62
,"	-63
▁f	-64
▁t	-65
▁TI	-66
▁MA	-67
.","	-68
▁TE	-69
or	-70
il	-71
▁PO	-72
▁SI	-73
tion	-74
YO	-75
▁u	-76
▁RE	-77
▁PR	-78
▁I	-79
▁SE	-80
▁SO	-81
est	-82
om	-83
▁et	-84
▁r	-85
▁des	-86
▁le	-87
EU	-88
ment	-89
▁SK	-90
que	-91
▁en	-92
us	-93
ra	-94
▁v	-95
our	-96
▁TA	-97
▁les	-98
ux	-99
▁ME	-100
▁é	-101
▁est	-102
ro	-103
▁RA	-104
OI	-105
▁à	-106
ont	-107
al	-108
▁PA	-109
ie	-110
▁PAL	-111
▁IL	-112
▁.	-113
▁SA	-114
▁SYO	-115
#$	-116
YE	-117
▁par	-118
▁b	-119
▁KA	-120
▁n	-121
▁LI	-122
ce	-123
és	-124
ant	-125
▁du	-126
me	-127
▁RI	-128
OL	-129
▁un	-130
RA	-131
▁g	-132
ation	-133
ve	-134
si	-135
ri	-136
Il	-137
▁.,	-138
ch	-139
as	-140
▁NI	-141
ut	-142
▁se	-143
ci	-144
ta	-145
▁NO	-146
▁YE	-147
se	-148
▁TO	-149
▁dé	-150
ais	-151
ol	-152
▁MI	-153
▁NE	-154
▁qu	-155
▁com	-156
▁MO	-157
UI	-158
res	-159
▁re	-160
▁,	-161
▁pl	-162
ire	-163
▁PL	-164
de	-165
lle	-166
▁une	-167
▁con	-168
▁FE	-169
▁PRO	-170
▁ST	-171
▁FI	-172
ée	-173
▁POUL	-174
ag	-175
▁e	-176
▁ch	-177
▁pour	-178
les	-179
té	-180
▁in	-181
▁!	-182
ran	-183
▁KI	-184
ille	-185
▁SUL	-186
di	-187
▁pro	-188
▁sont	-189
▁PRE	-190
▁NA	-191
YEL	-192
▁TEL	-193
▁C	-194
▁au	-195
▁ré	-196
au	-197
oi	-198
RE	-199
▁PE	-200
li	-201
ale	-202
▁sur	-203
▁LO	-204
at	-205
YI	-206
▁:	-207
Le	-208
ré	-209
▁j	-210
▁deux	-211
▁EL	-212
▁TU	-213
▁fa	-214
ous	-215
urs	-216
▁que	-217
ue	-218
▁plus	-219
mp	-220
▁il	-221
ers	-222
▁?	-223
▁FA	-224
LA	-225
▁TOU	-226
ul	-227
▁ne	-228
▁h	-229
ère	-230
os	-231
▁RO	-232
Les	-233
#.,	-234
▁OU	-235
▁SKA	-236
pe	-237
▁SEL	-238
▁SU	-239
YA	-240
▁ce	-241
ques	-242
▁TRA	-243
▁KN	-244
La	-245
ain	-246
▁FO	-247
LI	-248
▁AL	-249
▁YI	-250
ces	-251
ff	-252
▁PEL	-253
#,	-254
ni	-255
ité	-256
ès	-257
RI	-258
tes	-259
▁su	-260
▁pe	-261
ig	-262
end	-263
ction	-264
ure	-265
▁KU	-266
ér	-267
▁pr	-268
▁SP	-269
▁.","	-270
▁qui	-271
ouv	-272
mi	-273
▁pas	-274
ette	-275
▁FRA	-276
▁«	-277
▁YO	-278
ite	-279
▁»	-280
ble	-281
la	-282
ons	-283
▁YA	-284
▁TRE	-285
ort	-286
tre	-287
ées	-288
vi	-289
ge	-290
LE	-291
▁o	-292
▁KOU	-293
onn	-294
▁mo	-295
▁LEUL	-296
▁ex	-297
▁son	-298
▁ar	-299
▁POL	-300
▁PI	-301
pr	-302
▁."	-303
og	-304
▁TF	-305
▁MIL	-306
▁PT	-307
ac	-308
▁B	-309
▁TEUL	-310
vec	-311
▁PRI	-312
age	-313
che	-314
▁SOU	-315
▁mille	-316
bre	-317
ois	-318
ter	-319
▁ou	-320
EA	-321
ic	-322
▁FOL	-323
▁!,	-324
(.,	-325
iv	-326
▁avec	-327
▁tra	-328
▁an	-329
▁KE	-330
▁i	-331
YEU	-332
ique	-333
▁parti	-334
ai	-335
▁tr	-336
aire	-337
▁tou	-338
pp	-339
aux	-340
▁PEU	-341
▁LU	-342
ème	-343
▁comp	-344
▁D	-345
▁PLA	-346
▁MAL	-347
▁TUL	-348
▁nom	-349
ations	-350
▁PU	-351
un	-352
▁KAL	-353
oir	-354
tique	-355
ist	-356
mes	-357
and	-358
st	-359
..	-360
▁ac	-361
ouve	-362
ien	-363
▁TRI	-364
LO	-365
rois	-366
ts	-367
éra	-368
Elle	-369
#.","	-370
alement	-371
▁aut	-372
ait	-373
▁av	-374
▁aux	-375
ins	-376
OUD	-377
Ce	-378
remi	-379
én	-380
oc	-381
▁SID	-382
ine	-383
▁KOL	-384
ors	-385
▁SKE	-386
RO	-387
▁TROI	-388
ID	-389
ph	-390
▁di	-391
du	-392
▁po	-393
ir	-394
▁NOU	-395
$.,	-396
▁cent	-397
ussi	-398
▁éta	-399
▁NU	-400
▁al	-401
▁comm	-402
ap	-403
ot	-404
ate	-405
lé	-406
ond	-407
▁for	-408
tif	-409
▁?,	-410
▁G	-411
▁été	-412
▁MOI	-413
▁ses	-414
▁cont	-415
ub	-416
ze	-417
▁SYE	-418
▁FEL	-419
▁premi	-420
tu	-421
lles	-422
ance	-423
▁cette	-424
YEUL	-425
En	-426
▁comme	-427
sion	-428
ise	-429
▁FU	-430
▁LOL	-431
ab	-432
▁trois	-433
▁mé	-434
ru	-435
ante	-436
erre	-437
OIL	-438
▁ég	-439
mé	-440
▁dis	-441
▁ser	-442
▁mar	-443
$(.,	-444
▁YOUL	-445
▁SEUL	-446
(,	-447
ens	-448
ants	-449
AD	-450
▁y	-451
▁fait	-452
▁Fran	-453
uis	-454
▁RAL	-455
YAL	-456
eu	-457
▁mais	-458
▁KUL	-459
▁pré	-460
ence	-461
▁MU	-462
iste	-463
ion	-464
▁NEU	-465
▁SED	-466
▁mê	-467
ours	-468
▁aussi	-469
ments	-470
▁mon	-471
pé	-472
lo	-473
▁MEL	-474
ord	-475
▁si	-476
▁ont	-477
▁également	-478
▁NEL	-479
▁per	-480
tin	-481
▁ter	-482
▁TAL	-483
ui	-484
UID	-485
▁gran	-486
▁KRI	-487
▁YU	-488
cip	-489
▁ti	-490
lis	-491
▁cons	-492
ROI	-493
tions	-494
am	-495
▁NAL	-496
▁te	-497
▁TRO	-498
▁leur	-499
cu	-500
ans	-501
▁so	-502
▁déc	-503
ct	-504
▁vo	-505
▁SKI	-506
oup	-507
▁rés	-508
▁vous	-509
uf	-510
onne	-511
des	-512
▁même	-513
éd	-514
▁France	-515
▁KRE	-516
▁...	-517
▁pos	-518
lement	-519
▁fran	-520
ay	-521
▁OL	-522
▁KL	-523
▁PLU	-524
▁ma	-525
""	-526
▁très	-527
▁nombre	-528
ib	-529
▁car	-530
▁FOI	-531
▁POU	-532
▁J	-533
▁KEL	-534
▁es	-535
ouver	-536
▁MYE	-537
aires	-538
par	-539
onc	-540
ences	-541
▁""	-542
▁V	-543
▁neuf	-544
oire	-545
▁fin	-546
ill	-547
$,	-548
▁gr	-549
ales	-550
▁PUI	-551
▁ca	-552
▁peu	-553
▁SKO	-554
ésent	-555
▁YOU	-556
pt	-557
teur	-558
#(.,	-559
▁SYA	-560
▁as	-561
▁Ch	-562
çais	-563
▁trav	-564
fér	-565
▁ces	-566
▁imp	-567
endant	-568
ieurs	-569
▁SUI	-570
able	-571
(.","	-572
▁KOUL	-573
▁cha	-574
ités	-575
co	-576
▁diff	-577
▁or	-578
▁EU	-579
ard	-580
tiques	-581
près	-582
▁TROU	-583
▁É	-584
▁RU	-585
▁STA	-586
▁uti	-587
min	-588
▁elle	-589
tis	-590
▁fil	-591
tic	-592
ubli	-593
▁français	-594
ign	-595
ient	-596
raph	-597
oli	-598
▁TOUL	-599
▁cl	-600
▁MYEL	-601
▁pers	-602
▁inter	-603
olog	-604
ier	-605
▁FIL	-606
▁col	-607
dé	-608
ents	-609
▁KLA	-610
▁res	-611
▁év	-612
▁POLD	-613
$(,	-614
▁gén	-615
▁rég	-616
av	-617
▁nouve	-618
▁peut	-619
ang	-620
▁at	-621
erci	-622
▁PLE	-623
▁me	-624
Cette	-625
▁Par	-626
▁alors	-627
▁OD	-628
De	-629
ères	-630
▁TN	-631
jet	-632
▁app	-633
▁tout	-634
▁était	-635
ages	-636
um	-637
▁éc	-638
▁prop	-639
tiv	-640
▁KT	-641
On	-642
▁TOIL	-643
OUL	-644
oupe	-645
▁ra	-646
▁no	-647
lè	-648
▁ci	-649
ven	-650
ures	-651
use	-652
▁prin	-653
▁SYEL	-654
▁TYE	-655
ième	-656
REU	-657
▁on	-658
orte	-659
▁ad	-660
Ils	-661
▁dess	-662
▁bien	-663
▁SPI	-664
ég	-665
ace	-666
▁POI	-667
ten	-668
$.","	-669
orm	-670
","	-671
alis	-672
NE	-673
rit	-674
▁PRA	-675
aut	-676
▁LYE	-677
▁TOUD	-678
▁SAUID	-679
▁dou	-680
▁LID	-681
▁utilis	-682
ctions	-683
▁ann	-684
▁fut	-685
ROUD	-686
▁déf	-687
▁LYEU	-688
▁che	-689
▁quar	-690
nes	-691
▁RID	-692
▁ph	-693
▁SUD	-694
▁La	-695
▁SOL	-696
▁faire	-697
ong	-698
ieu	-699
el	-700
▁Le	-701
▁TIL	-702
▁jou	-703
int	-704
▁SOI	-705
uerre	-706
▁plusieurs	-707
▁REU	-708
Une	-709
ourn	-710
▁der	-711
▁AD	-712
▁PRL	-713
▁SIL	-714
Mais	-715
▁NL	-716
ec	-717
aine	-718
▁rec	-719
▁donc	-720
▁partie	-721
Un	-722
▁cor	-723
su	-724
▁acc	-725
id	-726
▁ren	-727
mb	-728
éri	-729
out	-730
▁généra	-731
all	-732
▁NYE	-733
▁sy	-734
▁ob	-735
ograph	-736
▁ROU	-737
oy	-738
▁LEL	-739
▁Ré	-740
igne	-741
its	-742
▁exp	-743
▁rép	-744
▁st	-745
iques	-746
$(.","	-747
stru	-748
▁TID	-749
RU	-750
▁repr	-751
▁soci	-752
▁YEUL	-753
ande	-754
▁sans	-755
ines	-756
▁jeu	-757
▁ville	-758
▁MN	-759
tement	-760
▁dép	-761
▁eff	-762
teurs	-763
▁premier	-764
rib	-765
tive	-766
met	-767
▁derni	-768
▁;	-769
▁produ	-770
▁TAD	-771
▁bas	-772
▁SAI	-773
▁quel	-774
olu	-775
▁NOL	-776
▁SPE	-777
oule	-778
▁ab	-779
erta	-780
▁sec	-781
insi	-782
▁TRU	-783
ad	-784
▁YEU	-785
▁sé	-786
▁NID	-787
▁ent	-788
▁bl	-789
tér	-790
▁cour	-791
Son	-792
férences	-793
▁SKEL	-794
rer	-795
▁TYO	-796
▁princip	-797
ls	-798
anc	-799
▁mil	-800
▁peti	-801
▁poli	-802
▁sous	-803
rent	-804
▁tous	-805
▁prof	-806
▁FN	-807
aison	-808
mis	-809
ose	-810
vent	-811
tra	-812
▁sept	-813
ches	-814
▁man	-815
ppe	-816
ture	-817
ouvent	-818
ide	-819
ron	-820
tres	-821
▁PLI	-822
▁KOI	-823
▁mod	-824
▁pay	-825
cher	-826
ieux	-827
Pour	-828
▁KNE	-829
▁grand	-830
▁SYAL	-831
▁leurs	-832
▁H	-833
LU	-834
▁SLA	-835
ges	-836
endre	-837
▁conn	-838
tr	-839
ric	-840
ive	-841
▁dire	-842
▁cré	-843
▁Paris	-844
#(,	-845
AI	-846
llement	-847
▁nation	-848
hé	-849
asse	-850
▁Mar	-851
▁dro	-852
aient	-853
vient	-854
▁vis	-855
stème	-856
eau	-857
Merci	-858
▁FR	-859
▁film	-860
Ces	-861
enne	-862
ulta	-863
▁PYE	-864
ues	-865
▁co	-866
▁jus	-867
▁date	-868
iss	-869
▁rou	-870
▁ils	-871
▁publi	-872
▁conf	-873
▁REA	-874
▁TYI	-875
▁déb	-876
▁groupe	-877
▁quarante	-878
Au	-879
▁SKAL	-880
▁autres	-881
▁donn	-882
▁LYO	-883
été	-884
uses	-885
▁hom	-886
lig	-887
#$.,	-888
mbre	-889
▁ED	-890
▁MED	-891
ME	-892
mand	-893
▁conc	-894
qui	-895
érie	-896
Des	-897
ELD	-898
ente	-899
▁personn	-900
▁long	-901
▁fois	-902
▁artic	-903
▁sc	-904
▁trava	-905
erv	-906
riv	-907
lus	-908
▁MOL	-909
uni	-910
alité	-911
▁Sain	-912
▁préc	-913
▁titre	-914
▁différ	-915
▁fer	-916
mment	-917
▁ainsi	-918
▁RYA	-919
▁TUD	-920
▁ép	-921
▁ét	-922
▁EUL	-923
▁joue	-924
▁pays	-925
core	-926
▁présent	-927
▁KID	-928
aiss	-929
UD	-930
agn	-931
ivre	-932
▁TAI	-933
▁non	-934
onde	-935
▁PTI	-936
▁dés	-937
▁MOU	-938
dic	-939
▁pi	-940
titu	-941
▁REL	-942
▁tran	-943
itu	-944
▁RYEUL	-945
pendant	-946
ribu	-947
▁SOUL	-948
▁ass	-949
▁première	-950
▁ver	-951
▁sou	-952
oit	-953
▁sour	-954
ça	-955
Par	-956
▁né	-957
▁quat	-958
pul	-959
lu	-960
ass	-961
▁inf	-962
ête	-963
▁im	-964
▁RYEL	-965
ies	-966
omp	-967
enti	-968
▁après	-969
if	-970
▁tu	-971
▁mal	-972
▁ju	-973
urent	-974
▁NYEL	-975
▁LOI	-976
▁étu	-977
antes	-978
▁contre	-979
suite	-980
▁prob	-981
ographie	-982
im	-983
are	-984
▁import	-985
▁vie	-986
▁lors	-987
▁souvent	-988
▁représent	-989
fois	-990
▁consi	-991
▁quelques	-992
ger	-993
anis	-994
▁particu	-995
▁inc	-996
▁pass	-997
#$,	-998
▁hist	-999
▁place	-1000
lui	-1001
▁fon	-1002
sition	-1003
agne	-1004
puis	-1005
▁gra	-1006
nis	-1007
▁constru	-1008
mble	-1009
▁puis	-1010
th	-1011
▁encore	-1012
bil	-1013
ici	-1014
ense	-1015
rop	-1016
atique	-1017
ites	-1018
▁enf	-1019
▁off	-1020
▁moins	-1021
▁commun	-1022
nement	-1023
dif	-1024
▁monde	-1025
▁div	-1026
▁TYEL	-1027
▁certa	-1028
▁servi	-1029
LUI	-1030
▁min	-1031
▁TLI	-1032
#(.","	-1033
▁RYE	-1034
omm	-1035
▁POIL	-1036
illes	-1037
▁ques	-1038
▁modè	-1039
▁Les	-1040
▁TOI	-1041
▁permet	-1042
aî	-1043
velo	-1044
▁MNI	-1045
▁dev	-1046
▁remp	-1047
ôt	-1048
▁esp	-1049
▁KR	-1050
ains	-1051
▁Saint	-1052
ats	-1053
oci	-1054
nent	-1055
▁ROI	-1056
▁prés	-1057
une	-1058
▁guerre	-1059
▁particuli	-1060
rim	-1061
ologie	-1062
▁nombreux	-1063
mar	-1064
▁tech	-1065
▁RL	-1066
▁supp	-1067
▁éle	-1068
omb	-1069
▁NOD	-1070
èrement	-1071
tue	-1072
▁MUL	-1073
▁fond	-1074
▁SLUI	-1075
ari	-1076
▁avoir	-1077
▁ag	-1078
bles	-1079
▁SYI	-1080
▁cap	-1081
▁trans	-1082
▁LOU	-1083
▁LYI	-1084
▁PYO	-1085
▁ess	-1086
cul	-1087
▁FYE	-1088
▁dévelo	-1089
▁avant	-1090
▁étaient	-1091
OD	-1092
▁mondi	-1093
umé	-1094
LID	-1095
▁PID	-1096
jours	-1097
ène	-1098
▁ensuite	-1099
▁vi	-1100
POUL	-1101
▁can	-1102
▁cas	-1103
▁nous	-1104
▁KNI	-1105
nique	-1106
nation	-1107
cc	-1108
▁char	-1109
▁aff	-1110
eux	-1111
▁port	-1112
▁reste	-1113
▁quin	-1114
▁rest	-1115
▁KROI	-1116
▁KTOL	-1117
▁LEU	-1118
▁équi	-1119
▁SEU	-1120
▁devient	-1121
▁».	-1122
Ch	-1123
▁RAD	-1124
▁met	-1125
▁disp	-1126
▁grande	-1127
▁té	-1128
▁NOI	-1129
ché	-1130
lon	-1131
▁PM	-1132
ature	-1133
sible	-1134
▁pouv	-1135
cep	-1136
ball	-1137
ision	-1138
▁form	-1139
▁li	-1140
▁Éta	-1141
▁coup	-1142
▁lég	-1143
dre	-1144
▁org	-1145
▁mont	-1146
▁toujours	-1147
▁vers	-1148
▁quator	-1149
▁NYO	-1150
▁sol	-1151
▁mat	-1152
rière	-1153
▁NOIL	-1154
▁travail	-1155
PA	-1156
▁public	-1157
ALD	-1158
▁seu	-1159
rique	-1160
▁popul	-1161
▁ins	-1162
▁douze	-1163
emp	-1164
▁OUI	-1165
▁sta	-1166
▁tre	-1167
ables	-1168
gé	-1169
▁ça	-1170
▁rap	-1171
▁dont	-1172
dition	-1173
▁An	-1174
ateur	-1175
▁sp	-1176
▁profes	-1177
▁Ar	-1178
▁SRA	-1179
▁FRO	-1180
sions	-1181
▁TREI	-1182
▁comb	-1183
Si	-1184
▁YUI	-1185
▁nive	-1186
▁région	-1187
▁RYO	-1188
▁LYEL	-1189
▁disc	-1190
éta	-1191
olution	-1192
▁chaque	-1193
ét	-1194
SI	-1195
▁KEU	-1196
▁modif	-1197
▁cul	-1198
▁TRAI	-1199
jour	-1200
▁loc	-1201
▁champ	-1202
ves	-1203
▁dur	-1204
▁situ	-1205
▁quatorze	-1206
ize	-1207
ode	-1208
ole	-1209
▁In	-1210
▁ty	-1211
▁quinze	-1212
▁FUL	-1213
▁KRO	-1214
▁tour	-1215
▁internation	-1216
▁lieu	-1217
▁appar	-1218
Sy	-1219
uss	-1220
▁ri	-1221
aines	-1222
▁cours	-1223
▁toute	-1224
▁fe	-1225
cess	-1226
ler	-1227
ultatif	-1228
▁projet	-1229
vers	-1230
▁siè	-1231
▁fonction	-1232
ros	-1233
▁SPA	-1234
▁nota	-1235
LOD	-1236
itation	-1237
ède	-1238
onom	-1239
▁am	-1240
cien	-1241
▁YOI	-1242
▁fam	-1243
▁spé	-1244
▁cela	-1245
ver	-1246
▁?","	-1247
tifs	-1248
▁KLUD	-1249
coup	-1250
▁autre	-1251
▁toutes	-1252
▁politique	-1253
tég	-1254
▁mis	-1255
auche	-1256
▁États	-1257
▁hab	-1258
lace	-1259
▁références	-1260
▁FOUL	-1261
▁pres	-1262
▁proc	-1263
Système	-1264
▁mondiale	-1265
MI	-1266
▁!","	-1267
▁forme	-1268
▁RLI	-1269
▁page	-1270
▁sub	-1271
tient	-1272
eaucoup	-1273
▁?"	-1274
▁année	-1275
▁dépar	-1276
fac	-1277
âti	-1278
▁!"	-1279
▁rep	-1280
térie	-1281
▁FRE	-1282
ances	-1283
▁coule	-1284
▁treize	-1285
▁FED	-1286
▁ta	-1287
▁votre	-1288
otes	-1289
▁main	-1290
▁poste	-1291
Et	-1292
▁prog	-1293
▁quand	-1294
▁suite	-1295
facultatif	-1296
oot	-1297
▁rom	-1298
▁sera	-1299
▁site	-1300
▁SLO	-1301
ing	-1302
sez	-1303
ôle	-1304
▁RLA	-1305
▁SEI	-1306
▁thé	-1307
▁amé	-1308
▁lib	-1309
▁FOUD	-1310
▁pouvoir	-1311
rait	-1312
▁emp	-1313
▁celui	-1314
pec	-1315
▁Guerre	-1316
▁spéci	-1317
▁depuis	-1318
fin	-1319
iter	-1320
▁KRA	-1321
▁vol	-1322
▁effet	-1323
ange	-1324
quer	-1325
▁nombreuses	-1326
▁faut	-1327
▁indi	-1328
uer	-1329
uro	-1330
ibli	-1331
▁TFI	-1332
▁personne	-1333
gl	-1334
▁br	-1335
▁TNU	-1336
▁LAL	-1337
itaire	-1338
▁deven	-1339
?,	-1340
op	-1341
tier	-1342
Après	-1343
ible	-1344
tives	-1345
ST	-1346
èrent	-1347
ootball	-1348
▁gouver	-1349
▁française	-1350
Ses	-1351
icie	-1352
▁voir	-1353
▁mus	-1354
▁droit	-1355
ki	-1356
tent	-1357
▁SPOL	-1358
▁série	-1359
pes	-1360
rain	-1361
▁SRE	-1362
▁pendant	-1363
...	-1364
▁concer	-1365
▁notamment	-1366
cture	-1367
▁poss	-1368
▁général	-1369
ps	-1370
onse	-1371
▁MYI	-1372
oul	-1373
▁péri	-1374
▁journ	-1375
NA	-1376
▁fi	-1377
ionn	-1378
▁PYEL	-1379
ération	-1380
ug	-1381
▁TRED	-1382
▁TNA	-1383
▁réc	-1384
▁point	-1385
▁niveau	-1386
▁question	-1387
orts	-1388
▁PTID	-1389
▁contin	-1390
NO	-1391
▁cô	-1392
▁furent	-1393
▁histor	-1394
ob	-1395
ony	-1396
▁op	-1397
▁carac	-1398
▁trouve	-1399
▁fr	-1400
▁RALD	-1401
iens	-1402
▁porte	-1403
erie	-1404
istes	-1405
▁beaucoup	-1406
Que	-1407
▁là	-1408
pédi	-1409
▁KMA	-1410
▁plan	-1411
▁rédi	-1412
▁dernier	-1413
âte	-1414
▁NED	-1415
▁Unis	-1416
▁orig	-1417
▁tard	-1418
▁autor	-1419
▁PTE	-1420
▁club	-1421
▁ba	-1422
▁organis	-1423
PAL	-1424
▁FEU	-1425
▁YAL	-1426
▁sal	-1427
▁saison	-1428
rage	-1429
âtre	-1430
▁men	-1431
ati	-1432
▁jours	-1433
oin	-1434
téra	-1435
▁mes	-1436
▁avait	-1437
▁exemp	-1438
tro	-1439
▁id	-1440
▁centre	-1441
▁nouveau	-1442
rés	-1443
isme	-1444
cid	-1445
▁cé	-1446
bilité	-1447
▁ligne	-1448
▁relig	-1449
aissance	-1450
▁compr	-1451
▁SKOI	-1452
▁football	-1453
▁ans	-1454
▁début	-1455
▁gar	-1456
▁vic	-1457
▁années	-1458
▁article	-1459
iles	-1460
▁KALD	-1461
▁autom	-1462
▁études	-1463
xe	-1464
LEU	-1465
▁SF	-1466
▁Pro	-1467
Notes	-1468
▁dessous	-1469
▁soit	-1470
▁jusqu	-1471
▁peuvent	-1472
▁dom	-1473
▁bâti	-1474
▁recher	-1475
▁semble	-1476
▁(	-1477
▁sup	-1478
▁tex	-1479
▁KAD	-1480
▁log	-1481
▁doit	-1482
lection	-1483
▁deuxième	-1484
yc	-1485
▁Can	-1486
▁bon	-1487
▁fem	-1488
▁trop	-1489
▁télé	-1490
ud	-1491
▁seul	-1492
▁MAD	-1493
▁SKF	-1494
▁maj	-1495
▁lang	-1496
unes	-1497
▁Uni	-1498
▁cou	-1499
isse	-1500
▁ani	-1501
▁ouv	-1502
oires	-1503
sionne	-1504
▁nécess	-1505
nom	-1506
itement	-1507
▁nouvelle	-1508
èg	-1509
ade	-1510
ils	-1511
ions	-1512
▁sau	-1513
▁rapp	-1514
▁rapide	-1515
vis	-1516
▁KNA	-1517
▁YEL	-1518
hui	-1519
ED	-1520
iti	-1521
tant	-1522
▁dém	-1523
▁père	-1524
▁selon	-1525
Ar	-1526
▁SKMI	-1527
▁tourn	-1528
▁enfants	-1529
▁por	-1530
▁elles	-1531
illeurs	-1532
▁présid	-1533
Com	-1534
ert	-1535
tout	-1536
▁hum	-1537
man	-1538
èce	-1539
mande	-1540
▁nature	-1541
cé	-1542
fic	-1543
ner	-1544
▁th	-1545
jourd	-1546
▁unique	-1547
Elles	-1548
▁FOLD	-1549
▁poin	-1550
ennent	-1551
mo	-1552
▁arr	-1553
ument	-1554
▁TRAL	-1555
▁retr	-1556
▁contra	-1557
▁contribu	-1558
ock	-1559
rip	-1560
Plus	-1561
▁FRI	-1562
▁SAL	-1563
▁pat	-1564
▁Al	-1565
▁cr	-1566
▁gé	-1567
▁pra	-1568
▁STRA	-1569
istance	-1570
be	-1571
▁source	-1572
lier	-1573
▁FNU	-1574
▁existe	-1575
iki	-1576
ili	-1577
pédia	-1578
▁camp	-1579
ikipédia	-1580
KO	-1581
oles	-1582
▁ref	-1583
▁ten	-1584
▁déta	-1585
ean	-1586
▁ense	-1587
▁articles	-1588
EI	-1589
In	-1590
ière	-1591
▁TFYE	-1592
▁doc	-1593
▁corps	-1594
#$(	-1595
ram	-1596
ses	-1597
▁SAD	-1598
cteur	-1599
▁PRYE	-1600
ateurs	-1601
▁économ	-1602
▁parfois	-1603
amp	-1604
lic	-1605
▁cet	-1606
▁haut	-1607
▁celle	-1608
tru	-1609
▁lar	-1610
▁actue	-1611
▁som	-1612
▁précéd	-1613
ez	-1614
era	-1615
▁activ	-1616
oute	-1617
▁anim	-1618
#$.","	-1619
▁demand	-1620
Cela	-1621
▁noir	-1622
alités	-1623
▁Références	-1624
aur	-1625
▁alle	-1626
▁considé	-1627
▁vari	-1628
▁sujet	-1629
▁fé	-1630
▁appe	-1631
▁habit	-1632
▁nationale	-1633
▁gouvernement	-1634
cont	-1635
form	-1636
eunes	-1637
▁voit	-1638
▁développe	-1639
val	-1640
▁z	-1641
cipe	-1642
▁cal	-1643
▁priv	-1644
▁succ	-1645
▁univ	-1646
▁ouver	-1647
▁assez	-1648
▁entre	-1649
ologique	-1650
Cependant	-1651
âteau	-1652
▁compte	-1653
qué	-1654
aise	-1655
▁améric	-1656
▁système	-1657
ath	-1658
▁aur	-1659
▁bonne	-1660
Qu	-1661
adi	-1662
aque	-1663
èces	-1664
▁TFN	-1665
▁UL	-1666
ourg	-1667
iment	-1668
▁constitu	-1669
cer	-1670
temp	-1671
▁KLO	-1672
▁moi	-1673
▁rév	-1674
▁bois	-1675
aît	-1676
▁rel	-1677
▁KRID	-1678
▁serait	-1679
II	-1680
▁second	-1681
ROID	-1682
FE	-1683
oig	-1684
oupes	-1685
▁dessus	-1686
for	-1687
▁TED	-1688
▁att	-1689
osition	-1690
▁modèles	-1691
assi	-1692
▁FYA	-1693
▁cir	-1694
▁vra	-1695
▁mort	-1696
férence	-1697
▁professionne	-1698
ète	-1699
lème	-1700
▁KREA	-1701
az	-1702
▁consid	-1703
▁gauche	-1704
oque	-1705
▁lit	-1706
▁joueur	-1707
tistiques	-1708
▁production	-1709
ada	-1710
▁sud	-1711
▁nord	-1712
▁milieu	-1713
▁premiers	-1714
▁ap	-1715
ises	-1716
▁SPO	-1717
▁KLEL	-1718
▁petit	-1719
▁procéd	-1720
oth	-1721
ires	-1722
▁Com	-1723
aliste	-1724
ublique	-1725
▁différents	-1726
jà	-1727
▁reg	-1728
▁personnes	-1729
éc	-1730
▁reç	-1731
▁sig	-1732
istra	-1733
▁MEUL	-1734
▁hommes	-1735
osi	-1736
▁feu	-1737
▁KOUD	-1738
▁PAIL	-1739
▁ROUD	-1740
▁atta	-1741
▁chez	-1742
▁service	-1743
▁technique	-1744
fs	-1745
▁oc	-1746
▁Mont	-1747
▁culture	-1748
▁rencont	-1749
ras	-1750
▁he	-1751
crip	-1752
▁PEI	-1753
▁Gran	-1754
▁modèle	-1755
▁succès	-1756
▁Il	-1757
▁KLI	-1758
▁PROA	-1759
▁propri	-1760
▁société	-1761
▁cependant	-1762
cs	-1763
çon	-1764
quoi	-1765
▁MAI	-1766
▁nav	-1767
▁sign	-1768
▁territ	-1769
▁particip	-1770
▁KUI	-1771
▁siège	-1772
tivement	-1773
▁possède	-1774
ice	-1775
ital	-1776
▁blanc	-1777
▁couleur	-1778
▁considéré	-1779
▁troisième	-1780
deux	-1781
▁MFE	-1782
▁bou	-1783
▁déjà	-1784
gré	-1785
▁ROL	-1786
anche	-1787
▁équipe	-1788
▁surtout	-1789
YOD	-1790
▁cri	-1791
▁mom	-1792
▁TRUI	-1793
▁match	-1794
▁certains	-1795
▁ord	-1796
▁sor	-1797
uelles	-1798
▁travers	-1799
▁problème	-1800
tit	-1801
▁KLE	-1802
▁féd	-1803
▁base	-1804
▁signi	-1805
▁défense	-1806
aud	-1807
ris	-1808
ule	-1809
auté	-1810
▁FLU	-1811
▁cin	-1812
▁gen	-1813
▁Jean	-1814
▁famille	-1815
▁utilisé	-1816
▁généralement	-1817
KA	-1818
▁contr	-1819
▁univers	-1820
ié	-1821
ore	-1822
xes	-1823
▁cla	-1824
▁liste	-1825
▁présente	-1826
ress	-1827
▁cro	-1828
▁mouve	-1829
▁centra	-1830
▁château	-1831
ém	-1832
▁vé	-1833
▁ROD	-1834
▁bar	-1835
itaires	-1836
▁phot	-1837
▁conserv	-1838
▁TOL	-1839
▁élé	-1840
▁exemple	-1841
RIL	-1842
▁TD	-1843
▁LED	-1844
▁Sec	-1845
▁TFEL	-1846
▁côté	-1847
ditions	-1848
▁PTA	-1849
▁mer	-1850
▁voi	-1851
▁type	-1852
▁combat	-1853
quent	-1854
▁STIL	-1855
▁ceux	-1856
niques	-1857
ussion	-1858
▁jeunes	-1859
▁automatique	-1860
tie	-1861
▁KME	-1862
▁dra	-1863
▁jam	-1864
▁rend	-1865
▁conse	-1866
▁destin	-1867
Vous	-1868
▁ind	-1869
▁défin	-1870
lin	-1871
pond	-1872
▁PLO	-1873
▁dit	-1874
▁temp	-1875
▁RLYOD	-1876
SPA	-1877
ori	-1878
▁ve	-1879
duit	-1880
▁mag	-1881
▁PALD	-1882
▁mois	-1883
ionnat	-1884
▁inform	-1885
uc	-1886
duction	-1887
▁résulta	-1888
dec	-1889
uli	-1890
▁Rép	-1891
▁vale	-1892
▁rouge	-1893
▁mainten	-1894
ma	-1895
▁large	-1896
respond	-1897
▁origin	-1898
▁département	-1899
SE	-1900
ende	-1901
istre	-1902
▁part	-1903
▁suiv	-1904
▁passe	-1905
▁partir	-1906
▁résumé	-1907
alisation	-1908
▁KMU	-1909
▁KOD	-1910
mique	-1911
▁angl	-1912
▁quoi	-1913
▁cents	-1914
▁Canada	-1915
▁comment	-1916
oph	-1917
rier	-1918
▁règ	-1919
ibles	-1920
▁tête	-1921
illage	-1922
▁libre	-1923
▁remar	-1924
▁classe	-1925
▁compos	-1926
▁dernière	-1927
▁traitement	-1928
Sur	-1929
aute	-1930
Certa	-1931
▁cher	-1932
▁fais	-1933
▁chose	-1934
▁étant	-1935
▁national	-1936
▁possible	-1937
tal	-1938
▁AI	-1939
▁aj	-1940
▁RIL	-1941
entre	-1942
▁comporte	-1943
pte	-1944
NYEL	-1945
êtes	-1946
▁arch	-1947
▁correspond	-1948
▁rapidement	-1949
▁moy	-1950
▁roy	-1951
▁prov	-1952
▁unité	-1953
▁raison	-1954
▁travaux	-1955
mie	-1956
land	-1957
▁but	-1958
▁distin	-1959
▁aujourd	-1960
bor	-1961
cle	-1962
""."	-1963
iche	-1964
▁TEAD	-1965
▁bata	-1966
▁face	-1967
▁artis	-1968
▁langue	-1969
▁propos	-1970
usé	-1971
▁FLA	-1972
▁éch	-1973
tière	-1974
cident	-1975
▁période	-1976
▁principal	-1977
ix	-1978
▁NEUL	-1979
▁Premi	-1980
▁grands	-1981
▁suivre	-1982
▁version	-1983
▁président	-1984
jec	-1985
▁bi	-1986
▁SME	-1987
▁essay	-1988
▁instru	-1989
Cet	-1990
RYE	-1991
▁fig	-1992
ennes	-1993
lég	-1994
cole	-1995
▁PIL	-1996
▁sem	-1997
▁indé	-1998
▁vict	-1999
▁grandes	-2000
▁pol	-2001
▁parc	-2002
▁mettre	-2003
▁modifier	-2004
▁FL	-2005
ison	-2006
▁ble	-2007
▁dispar	-2008
▁fédéra	-2009
▁points	-2010
▁tradition	-2011
né	-2012
éb	-2013
▁NUD	-2014
▁STRU	-2015
▁terre	-2016
▁terrain	-2017
▁AU	-2018
▁OI	-2019
erce	-2020
▁KED	-2021
▁STI	-2022
▁eux	-2023
rig	-2024
orité	-2025
▁fort	-2026
▁sens	-2027
▁données	-2028
▁program	-2029
▁développ	-2030
rire	-2031
▁roi	-2032
▁sty	-2033
▁MYEU	-2034
▁REUL	-2035
▁TNIL	-2036
▁TRYE	-2037
▁durant	-2038
▁manière	-2039
▁rédiger	-2040
acc	-2041
ton	-2042
▁bal	-2043
▁rej	-2044
▁fils	-2045
▁bande	-2046
▁genre	-2047
ression	-2048
▁droite	-2049
▁femmes	-2050
▁membre	-2051
ministra	-2052
▁demande	-2053
▁littéra	-2054
▁seulement	-2055
▁nécessaire	-2056
ey	-2057
rès	-2058
▁sci	-2059
sibles	-2060
tition	-2061
▁vos	-2062
▁bibli	-2063
▁livre	-2064
cription	-2065
Deux	-2066
▁Car	-2067
▁MUI	-2068
▁RED	-2069
quant	-2070
▁TROL	-2071
▁mieux	-2072
▁République	-2073
RID	-2074
isé	-2075
tag	-2076
▁fl	-2077
▁FLE	-2078
▁FOU	-2079
▁ven	-2080
▁devant	-2081
*.,	-2082
orie	-2083
▁REI	-2084
icile	-2085
▁Seconde	-2086
▁enc	-2087
était	-2088
▁inst	-2089
▁terr	-2090
▁allemand	-2091
▁différent	-2092
lent	-2093
peau	-2094
▁KRIL	-2095
▁PLOI	-2096
▁numé	-2097
▁moment	-2098
▁rapport	-2099
êt	-2100
ame	-2101
ser	-2102
ront	-2103
èmes	-2104
entes	-2105
▁taille	-2106
▁développement	-2107
utôt	-2108
▁bloc	-2109
▁pont	-2110
▁scène	-2111
▁évent	-2112
▁entrepr	-2113
▁nouvelles	-2114
ira	-2115
lée	-2116
xim	-2117
erne	-2118
▁LYA	-2119
▁MOD	-2120
▁gros	-2121
▁petite	-2122
mée	-2123
Hist	-2124
médi	-2125
▁peup	-2126
▁tant	-2127
▁tomb	-2128
▁chois	-2129
isation	-2130
▁reconn	-2131
▁commerci	-2132
lie	-2133
Tous	-2134
▁FNI	-2135
▁LAD	-2136
▁PUL	-2137
▁fle	-2138
▁fré	-2139
▁KULD	-2140
▁PTRO	-2141
▁rela	-2142
▁seule	-2143
▁terme	-2144
▁caractér	-2145
yth	-2146
éro	-2147
seur	-2148
aisons	-2149
▁cause	-2150
▁uniquement	-2151
▁k	-2152
lise	-2153
othè	-2154
▁ici	-2155
▁déci	-2156
▁simp	-2157
▁population	-2158
▁construction	-2159
rin	-2160
umi	-2161
▁termin	-2162
amb	-2163
ime	-2164
ome	-2165
rée	-2166
▁sav	-2167
uropé	-2168
▁anci	-2169
▁éval	-2170
▁autorités	-2171
ds	-2172
let	-2173
âce	-2174
cent	-2175
ueil	-2176
▁quit	-2177
▁ress	-2178
▁médec	-2179
▁homony	-2180
▁officie	-2181
▁procédure	-2182
od	-2183
UIL	-2184
uel	-2185
éné	-2186
itre	-2187
▁MID	-2188
▁STE	-2189
ritan	-2190
▁associ	-2191
▁KMI	-2192
▁élect	-2193
▁répond	-2194
YAD	-2195
bum	-2196
▁pa	-2197
tère	-2198
▁PAD	-2199
▁dist	-2200
Chaque	-2201
▁effec	-2202
▁change	-2203
▁époque	-2204
▁réponse	-2205
▁recherche	-2206
vé	-2207
isc	-2208
▁»,	-2209
▁voy	-2210
entie	-2211
▁glace	-2212
▁important	-2213
▁administra	-2214
▁En	-2215
illé	-2216
ouse	-2217
tées	-2218
▁KNO	-2219
▁KTF	-2220
moins	-2221
ticle	-2222
▁Champ	-2223
▁jamais	-2224
▁réalis	-2225
▁commune	-2226
▁prendre	-2227
▁supérie	-2228
▁mouvement	-2229
SO	-2230
dio	-2231
▁loi	-2232
▁suc	-2233
aître	-2234
ierre	-2235
ersonn	-2236
▁indic	-2237
▁prison	-2238
▁commence	-2239
▁militaire	-2240
Est	-2241
ets	-2242
lés	-2243
▁Se	-2244
▁vue	-2245
▁»."	-2246
ative	-2247
ouvez	-2248
▁Alle	-2249
▁maison	-2250
▁petits	-2251
!,	-2252
ota	-2253
urb	-2254
▁let	-2255
gique	-2256
urité	-2257
istère	-2258
uments	-2259
▁meille	-2260
▁plutôt	-2261
▁discussion	-2262
▁particulier	-2263
tel	-2264
alif	-2265
vier	-2266
▁Bel	-2267
▁KLU	-2268
▁liv	-2269
▁rev	-2270
▁syn	-2271
temps	-2272
▁Soci	-2273
▁direc	-2274
▁texte	-2275
ception	-2276
▁europé	-2277
▁précédents	-2278
▁principalement	-2279
Car	-2280
ane	-2281
lar	-2282
▁mari	-2283
▁donne	-2284
▁commen	-2285
▁mul	-2286
▁nos	-2287
▁ple	-2288
▁mise	-2289
▁connu	-2290
volution	-2291
RED	-2292
rées	-2293
sage	-2294
▁fab	-2295
ienne	-2296
uisse	-2297
▁KMEL	-2298
▁aide	-2299
▁crois	-2300
ication	-2301
▁ailleurs	-2302
ile	-2303
vez	-2304
Tout	-2305
olue	-2306
▁Euro	-2307
▁évolu	-2308
▁formation	-2309
tés	-2310
êts	-2311
ilité	-2312
ockey	-2313
▁colle	-2314
▁Europe	-2315
eur	-2316
▁viv	-2317
▁album	-2318
▁visite	-2319
▁produit	-2320
▁résistance	-2321
phon	-2322
▁maî	-2323
▁méc	-2324
▁muni	-2325
▁historique	-2326
ych	-2327
oses	-2328
usse	-2329
▁Col	-2330
▁FLI	-2331
▁symb	-2332
oivent	-2333
▁décor	-2334
gie	-2335
erve	-2336
iers	-2337
▁FYI	-2338
▁fra	-2339
ètres	-2340
▁cath	-2341
▁anglais	-2342
Ne	-2343
▁rem	-2344
▁rue	-2345
illez	-2346
▁RYEU	-2347
▁façon	-2348
▁hockey	-2349
▁village	-2350
▁premières	-2351
ret	-2352
ysi	-2353
rite	-2354
trie	-2355
▁FREL	-2356
▁rivi	-2357
▁étab	-2358
étique	-2359
▁PRYED	-2360
▁compé	-2361
▁étran	-2362
▁questions	-2363
▁importante	-2364
auv	-2365
lit	-2366
Leur	-2367
ocra	-2368
▁RLE	-2369
▁vit	-2370
▁RYAL	-2371
▁envi	-2372
▁faci	-2373
▁catég	-2374
uellement	-2375
▁participe	-2376
▁internationale	-2377
hic	-2378
aume	-2379
sive	-2380
ules	-2381
▁avis	-2382
▁gens	-2383
▁détru	-2384
▁longue	-2385
▁archite	-2386
▁joueurs	-2387
Bi	-2388
oie	-2389
rie	-2390
Nous	-2391
▁nég	-2392
iller	-2393
▁Nord	-2394
▁resp	-2395
▁métro	-2396
▁parle	-2397
▁style	-2398
▁véhic	-2399
ptembre	-2400
▁trouver	-2401
▁histoire	-2402
▁Gr	-2403
arde	-2404
▁prom	-2405
▁dessin	-2406
▁réguli	-2407
Plusieurs	-2408
▁quartier	-2409
▁YD	-2410
odes	-2411
▁NEA	-2412
pecta	-2413
▁PLED	-2414
▁arriv	-2415
▁compati	-2416
▁lorsque	-2417
da	-2418
fi	-2419
SUL	-2420
▁hy	-2421
▁Roy	-2422
▁env	-2423
ition	-2424
▁	-2425
e	-2426
L	-2427
E	-2428
s	-2429
A	-2430
t	-2431
i	-2432
n	-2433
*	-2434
a	-2435
r	-2436
T	-2437
O	-2438
I	-2439
u	-2440
o	-2441
#	-2442
l	-2443
U	-2444
S	-2445
R	-2446
K	-2447
P	-2448
d	-2449
.	-2450
c	-2451
F	-2452
,	-2453
(	-2454
$	-2455
p	-2456
M	-2457
m	-2458
é	-2459
"	-2460
Y	-2461
D	-2462
N	-2463
v	-2464
f	-2465
g	-2466
b	-2467
q	-2468
h	-2469
x	-2470
è	-2471
C	-2472
à	-2473
y	-2474
j	-2475
:	-2476
'	-2477
!	-2478
?	-2479
z	-2480
B	-2481
ê	-2482
«	-2483
»	-2484
ç	-2485
V	-2486
G	-2487
ô	-2488
â	-2489
J	-2490
k	-2491
É	-2492
î	-2493
H	-2494
;	-2495
Q	-2496
